const unsigned char health_model[] = {

  0x1c, 0x00, 0x00, 0x00, 0x54, 0x46, 0x4c, 0x33, 0x14, 0x00, 0x20, 0x00, 
  0x1c, 0x00, 0x18, 0x00, 0x14, 0x00, 0x10, 0x00, 0x0c, 0x00, 0x00, 0x00, 
  0x08, 0x00, 0x04, 0x00, 0x14, 0x00, 0x00, 0x00, 0x1c, 0x00, 0x00, 0x00, 
  0x8c, 0x00, 0x00, 0x00, 0xe4, 0x00, 0x00, 0x00, 0xa0, 0x05, 0x00, 0x00, 
  0xb0, 0x05, 0x00, 0x00, 0x68, 0x0b, 0x00, 0x00, 0x03, 0x00, 0x00, 0x00, 
  0x01, 0x00, 0x00, 0x00, 0x10, 0x00, 0x00, 0x00, 0x00, 0x00, 0x0a, 0x00, 
  0x10, 0x00, 0x0c, 0x00, 0x08, 0x00, 0x04, 0x00, 0x0a, 0x00, 0x00, 0x00, 
  0x0c, 0x00, 0x00, 0x00, 0x1c, 0x00, 0x00, 0x00, 0x38, 0x00, 0x00, 0x00, 
  0x0f, 0x00, 0x00, 0x00, 0x73, 0x65, 0x72, 0x76, 0x69, 0x6e, 0x67, 0x5f, 
  0x64, 0x65, 0x66, 0x61, 0x75, 0x6c, 0x74, 0x00, 0x01, 0x00, 0x00, 0x00, 
  0x04, 0x00, 0x00, 0x00, 0x9c, 0xff, 0xff, 0xff, 0x0a, 0x00, 0x00, 0x00, 
  0x04, 0x00, 0x00, 0x00, 0x07, 0x00, 0x00, 0x00, 0x64, 0x65, 0x6e, 0x73, 
  0x65, 0x5f, 0x32, 0x00, 0x01, 0x00, 0x00, 0x00, 0x04, 0x00, 0x00, 0x00, 
  0x42, 0xfa, 0xff, 0xff, 0x04, 0x00, 0x00, 0x00, 0x07, 0x00, 0x00, 0x00, 
  0x69, 0x6e, 0x70, 0x75, 0x74, 0x5f, 0x31, 0x00, 0x02, 0x00, 0x00, 0x00, 
  0x34, 0x00, 0x00, 0x00, 0x04, 0x00, 0x00, 0x00, 0xdc, 0xff, 0xff, 0xff, 
  0x0d, 0x00, 0x00, 0x00, 0x04, 0x00, 0x00, 0x00, 0x13, 0x00, 0x00, 0x00, 
  0x43, 0x4f, 0x4e, 0x56, 0x45, 0x52, 0x53, 0x49, 0x4f, 0x4e, 0x5f, 0x4d, 
  0x45, 0x54, 0x41, 0x44, 0x41, 0x54, 0x41, 0x00, 0x08, 0x00, 0x0c, 0x00, 
  0x08, 0x00, 0x04, 0x00, 0x08, 0x00, 0x00, 0x00, 0x0c, 0x00, 0x00, 0x00, 
  0x04, 0x00, 0x00, 0x00, 0x13, 0x00, 0x00, 0x00, 0x6d, 0x69, 0x6e, 0x5f, 
  0x72, 0x75, 0x6e, 0x74, 0x69, 0x6d, 0x65, 0x5f, 0x76, 0x65, 0x72, 0x73, 
  0x69, 0x6f, 0x6e, 0x00, 0x0e, 0x00, 0x00, 0x00, 0xb8, 0x04, 0x00, 0x00, 
  0xb0, 0x04, 0x00, 0x00, 0x80, 0x04, 0x00, 0x00, 0x68, 0x04, 0x00, 0x00, 
  0x18, 0x04, 0x00, 0x00, 0x08, 0x03, 0x00, 0x00, 0xf8, 0x00, 0x00, 0x00, 
  0xa8, 0x00, 0x00, 0x00, 0xa0, 0x00, 0x00, 0x00, 0x98, 0x00, 0x00, 0x00, 
  0x90, 0x00, 0x00, 0x00, 0x88, 0x00, 0x00, 0x00, 0x68, 0x00, 0x00, 0x00, 
  0x04, 0x00, 0x00, 0x00, 0xee, 0xfa, 0xff, 0xff, 0x04, 0x00, 0x00, 0x00, 
  0x54, 0x00, 0x00, 0x00, 0x0c, 0x00, 0x00, 0x00, 0x08, 0x00, 0x0e, 0x00, 
  0x08, 0x00, 0x04, 0x00, 0x08, 0x00, 0x00, 0x00, 0x10, 0x00, 0x00, 0x00, 
  0x24, 0x00, 0x00, 0x00, 0x00, 0x00, 0x06, 0x00, 0x08, 0x00, 0x04, 0x00, 
  0x06, 0x00, 0x00, 0x00, 0x04, 0x00, 0x00, 0x00, 0x00, 0x00, 0x00, 0x00, 
  0x00, 0x00, 0x0a, 0x00, 0x10, 0x00, 0x0c, 0x00, 0x08, 0x00, 0x04, 0x00, 
  0x0a, 0x00, 0x00, 0x00, 0x02, 0x00, 0x00, 0x00, 0x02, 0x00, 0x00, 0x00, 
  0x04, 0x00, 0x00, 0x00, 0x06, 0x00, 0x00, 0x00, 0x32, 0x2e, 0x31, 0x35, 
  0x2e, 0x30, 0x00, 0x00, 0x4e, 0xfb, 0xff, 0xff, 0x04, 0x00, 0x00, 0x00, 
  0x10, 0x00, 0x00, 0x00, 0x31, 0x2e, 0x35, 0x2e, 0x30, 0x00, 0x00, 0x00, 
  0x00, 0x00, 0x00, 0x00, 0x00, 0x00, 0x00, 0x00, 0x5c, 0xf6, 0xff, 0xff, 
  0x60, 0xf6, 0xff, 0xff, 0x64, 0xf6, 0xff, 0xff, 0x68, 0xf6, 0xff, 0xff, 
  0x7a, 0xfb, 0xff, 0xff, 0x04, 0x00, 0x00, 0x00, 0x40, 0x00, 0x00, 0x00, 
  0x21, 0x55, 0x31, 0x3d, 0x08, 0xd0, 0x1c, 0x3f, 0xda, 0x58, 0x77, 0x3f, 
  0x27, 0x82, 0xe0, 0xbe, 0x11, 0x95, 0x51, 0xbf, 0x50, 0x84, 0x28, 0x3e, 
  0x9b, 0x7a, 0x77, 0x3f, 0x44, 0x36, 0xea, 0xbf, 0x09, 0x60, 0x56, 0xbe, 
  0xab, 0xaa, 0x8a, 0xbf, 0x2e, 0x7b, 0x00, 0xbf, 0x04, 0x4b, 0x58, 0xbf, 
  0x1a, 0xa5, 0x9c, 0x3f, 0x8a, 0xfb, 0xbd, 0xbd, 0x16, 0x03, 0x04, 0xbf, 
  0x3c, 0x20, 0xd7, 0x3f, 0xc6, 0xfb, 0xff, 0xff, 0x04, 0x00, 0x00, 0x00, 
  0x00, 0x02, 0x00, 0x00, 0xc8, 0x3d, 0x32, 0xbf, 0xa1, 0xc9, 0x3a, 0x3e, 
  0xfc, 0x03, 0x74, 0x3c, 0x7f, 0x83, 0x92, 0x3b, 0xc1, 0xf4, 0x42, 0xbf, 
  0x34, 0x26, 0x5e, 0xbe, 0xc4, 0x77, 0xc1, 0xbe, 0x0b, 0x87, 0xe4, 0x3e, 
  0x14, 0xe7, 0x2b, 0x3e, 0x27, 0x3a, 0xc1, 0xbe, 0xfd, 0x59, 0xfe, 0x3e, 
  0x3a, 0x41, 0x9f, 0xbd, 0x94, 0x66, 0xe3, 0x3d, 0x6a, 0xe5, 0x6c, 0xbc, 
  0xa7, 0x1f, 0xc7, 0xbd, 0xf7, 0xa7, 0xf5, 0xbd, 0x0b, 0x49, 0xac, 0xbe, 
  0xe6, 0x78, 0xbc, 0xbd, 0xf2, 0x87, 0xbc, 0x3b, 0x05, 0xe4, 0xb9, 0xbe, 
  0xe1, 0xc4, 0x2f, 0xbf, 0x63, 0x01, 0x13, 0xbe, 0xd0, 0xf1, 0x99, 0x3e, 
  0x0c, 0xff, 0x18, 0x3f, 0x43, 0x4b, 0x68, 0x3e, 0x42, 0xc4, 0x2e, 0xbf, 
  0x80, 0x0e, 0xcf, 0x3e, 0xdc, 0x3f, 0xb9, 0x3d, 0xfe, 0x33, 0xdc, 0xbe, 
  0xbd, 0x02, 0x3f, 0xbe, 0x36, 0x98, 0x13, 0x3d, 0x65, 0x7a, 0xa1, 0xbe, 
  0xf4, 0xe8, 0x4b, 0xbf, 0x7e, 0x6f, 0x2a, 0xbf, 0x97, 0xb4, 0xe5, 0x3e, 
  0x88, 0xa6, 0x1e, 0x3e, 0x83, 0x8d, 0xec, 0xbe, 0x2e, 0xfe, 0x40, 0x3e, 
  0x04, 0xda, 0x20, 0x3f, 0xe3, 0x40, 0xa4, 0x3e, 0x4a, 0x0d, 0x45, 0x3e, 
  0x77, 0x7c, 0x04, 0xbf, 0xe6, 0x65, 0x17, 0x3e, 0x27, 0xda, 0xde, 0xbe, 
  0x6e, 0x34, 0x88, 0xbe, 0x9a, 0xae, 0xba, 0xbe, 0xd9, 0xf0, 0xe3, 0xbe, 
  0x4c, 0x2d, 0xf5, 0xbd, 0xc4, 0x5d, 0x0e, 0xbe, 0x4a, 0xcc, 0x1b, 0xbf, 
  0x06, 0xc3, 0x52, 0x3d, 0x8b, 0xd4, 0xa8, 0xbe, 0xea, 0x88, 0x03, 0xbf, 
  0x28, 0x61, 0x87, 0x3e, 0x84, 0xc1, 0x1f, 0x3f, 0x27, 0x70, 0xb8, 0x3e, 
  0xfb, 0x0f, 0x9e, 0xbe, 0xea, 0x99, 0xf3, 0xbc, 0x25, 0x81, 0x41, 0x3e, 
  0x75, 0xb2, 0xa7, 0x3e, 0xba, 0xbf, 0xff, 0x3d, 0xdd, 0xf2, 0x11, 0xbf, 
  0x34, 0x06, 0x77, 0xbe, 0x29, 0x4f, 0x4a, 0xbd, 0xf1, 0x27, 0x13, 0x3e, 
  0x62, 0xee, 0x3b, 0x3f, 0x64, 0x53, 0xa5, 0xbe, 0x8e, 0xa9, 0x0f, 0x3e, 
  0x0e, 0x91, 0x06, 0x3f, 0xe3, 0x8a, 0x25, 0x3e, 0x70, 0x0e, 0xb7, 0xbe, 
  0x22, 0xe2, 0xb5, 0xbb, 0x02, 0x68, 0xc2, 0xbe, 0xfb, 0x65, 0x6e, 0xbe, 
  0xe0, 0xcc, 0x90, 0x3e, 0x9c, 0x37, 0xeb, 0x3e, 0x37, 0xfd, 0xcf, 0xbe, 
  0x42, 0x48, 0x18, 0x3e, 0xfd, 0x9e, 0x38, 0x3f, 0xcb, 0x72, 0x43, 0xbe, 
  0x29, 0xe8, 0x3c, 0xbf, 0xcb, 0x0e, 0x53, 0xbe, 0x3d, 0x21, 0x25, 0x3e, 
  0x9b, 0xc6, 0xda, 0x3d, 0x0a, 0x5a, 0xf0, 0xbe, 0xd0, 0x6c, 0x34, 0x3d, 
  0x17, 0x06, 0x2f, 0x3e, 0x74, 0x57, 0x16, 0x3c, 0xcd, 0x57, 0x31, 0xbd, 
  0x94, 0x22, 0x2d, 0xbe, 0x8c, 0x83, 0x3d, 0x3e, 0x29, 0x3d, 0x15, 0x3e, 
  0xeb, 0x63, 0x38, 0xbe, 0x27, 0xdb, 0xd5, 0xbe, 0x79, 0x7b, 0x1e, 0x3e, 
  0x4d, 0x6e, 0x5f, 0x3e, 0xa8, 0x03, 0xd5, 0xbe, 0x64, 0xdb, 0xe5, 0xbe, 
  0xf5, 0x7f, 0x83, 0x3e, 0x06, 0x2c, 0x94, 0xbe, 0x48, 0x92, 0xa4, 0xbe, 
  0x11, 0x69, 0xd0, 0xbe, 0x54, 0xcb, 0xaa, 0x3e, 0x1b, 0x53, 0x9f, 0x3d, 
  0xd4, 0xe5, 0x47, 0xbb, 0x5f, 0x43, 0xa1, 0xbe, 0xd7, 0x98, 0xe5, 0x3e, 
  0xe4, 0x57, 0x8a, 0xbe, 0x34, 0x4c, 0xb9, 0xbe, 0x93, 0xbf, 0x84, 0xbe, 
  0xef, 0x10, 0x19, 0x3e, 0xbb, 0xb0, 0x15, 0xbe, 0x54, 0x5c, 0x6b, 0x3f, 
  0xef, 0x0d, 0x4f, 0x3f, 0x06, 0x15, 0x51, 0xbe, 0xf6, 0x39, 0x09, 0x3f, 
  0x31, 0xde, 0x2a, 0x3f, 0xb7, 0x8b, 0x33, 0xbb, 0xcc, 0xec, 0x9d, 0xbe, 
  0xea, 0x19, 0xe1, 0xbe, 0xde, 0x1c, 0x36, 0x3e, 0x77, 0xd4, 0x90, 0x3e, 
  0xff, 0x93, 0x04, 0xbe, 0xaa, 0x06, 0xfc, 0x3e, 0x7c, 0xed, 0x6e, 0x3f, 
  0x46, 0x65, 0x4a, 0x3f, 0xe6, 0x67, 0x93, 0x3e, 0xf2, 0x3b, 0x6f, 0xbe, 
  0xd2, 0xfd, 0xff, 0xff, 0x04, 0x00, 0x00, 0x00, 0x00, 0x01, 0x00, 0x00, 
  0xbf, 0xbc, 0x43, 0xbd, 0x2d, 0x32, 0xb6, 0x3e, 0x44, 0x26, 0x88, 0xbf, 
  0x0a, 0x6e, 0x25, 0x3d, 0xc4, 0xf3, 0x61, 0x3d, 0x8f, 0x75, 0x71, 0xbe, 
  0x1a, 0xc2, 0x53, 0x3f, 0x8b, 0x5d, 0x9d, 0x3e, 0x9d, 0x51, 0xd8, 0x3e, 
  0x8a, 0xdd, 0x96, 0x3e, 0x61, 0xf9, 0x65, 0xbe, 0x2f, 0x67, 0xf2, 0xbd, 
  0x83, 0x25, 0x58, 0x3e, 0xe5, 0x46, 0x2b, 0x3f, 0xcd, 0xb5, 0x25, 0xbd, 
  0xed, 0xb3, 0xcb, 0x3e, 0x63, 0xf6, 0x23, 0xbd, 0xb5, 0xc7, 0x18, 0x3e, 
  0xe5, 0x2a, 0x71, 0x3f, 0x2d, 0xcf, 0xde, 0xbe, 0x79, 0x0f, 0xd7, 0xbd, 
  0xbe, 0xf4, 0x8c, 0xbe, 0x81, 0xa9, 0x4d, 0x3e, 0x72, 0x8b, 0x8d, 0xbd, 
  0x31, 0xcc, 0xf7, 0x3e, 0x03, 0x0a, 0xaf, 0xbb, 0xb9, 0xa8, 0x52, 0x3e, 
  0x80, 0xb6, 0x63, 0x3d, 0x2e, 0xe9, 0x98, 0xbe, 0x55, 0x29, 0x57, 0x3d, 
  0xa2, 0x96, 0x63, 0x3e, 0xb9, 0x31, 0xc5, 0x3d, 0xab, 0xfb, 0x70, 0x3d, 
  0x9d, 0x27, 0xea, 0x3b, 0x22, 0x5c, 0xf2, 0xbd, 0x64, 0x91, 0xe9, 0xbe, 
  0x8c, 0xcc, 0x9e, 0x3d, 0x32, 0xbd, 0x04, 0x3d, 0xcf, 0x3f, 0x86, 0xbd, 
  0x6a, 0x98, 0xea, 0x3e, 0x0e, 0xf1, 0xc9, 0xbe, 0x4a, 0xf8, 0x61, 0xbd, 
  0x2c, 0xab, 0x08, 0x3d, 0x88, 0x18, 0x3d, 0x3e, 0x03, 0x4b, 0x78, 0x3e, 
  0x50, 0x01, 0x15, 0x3f, 0xb3, 0xdb, 0x4c, 0x3d, 0xd8, 0x28, 0xf2, 0xbe, 
  0x6d, 0x46, 0x45, 0xbc, 0xa2, 0x80, 0x0e, 0xbf, 0xca, 0xbb, 0x90, 0xbf, 
  0xaa, 0x4a, 0x7a, 0x3d, 0x47, 0x33, 0x30, 0xbe, 0x84, 0x00, 0x54, 0x3e, 
  0xc6, 0x95, 0x71, 0x3f, 0xf7, 0x6b, 0xfc, 0x3e, 0x56, 0x7b, 0x08, 0x3e, 
  0xd6, 0x32, 0x0e, 0xbf, 0x8c, 0x84, 0xac, 0x3e, 0x6f, 0x08, 0xd2, 0xbe, 
  0x5f, 0xa4, 0xae, 0xbe, 0xf5, 0xab, 0x4a, 0x3e, 0x3b, 0x16, 0xa6, 0xbc, 
  0xb4, 0x05, 0xbb, 0x3e, 0xde, 0xfe, 0xff, 0xff, 0x04, 0x00, 0x00, 0x00, 
  0x40, 0x00, 0x00, 0x00, 0x6d, 0x26, 0x39, 0xbe, 0x2b, 0x12, 0x0d, 0xbe, 
  0xb6, 0x18, 0xf4, 0x3e, 0x48, 0x76, 0xd5, 0xbe, 0xf3, 0x0b, 0x12, 0xbe, 
  0x94, 0x8e, 0x0a, 0x3e, 0x6f, 0x90, 0x1a, 0x3f, 0x09, 0x41, 0x30, 0x3f, 
  0xdd, 0x2f, 0x1f, 0x3e, 0x17, 0x3f, 0x0d, 0xbf, 0x3c, 0xdb, 0x03, 0x3f, 
  0xf0, 0x72, 0x64, 0x3c, 0xf3, 0x95, 0x5f, 0xbd, 0x9d, 0x9e, 0xea, 0xbd, 
  0xd4, 0xe5, 0x53, 0xbd, 0x59, 0x7d, 0x5f, 0x3e, 0x2a, 0xff, 0xff, 0xff, 
  0x04, 0x00, 0x00, 0x00, 0x08, 0x00, 0x00, 0x00, 0x11, 0x66, 0x92, 0x3e, 
  0x13, 0x66, 0x92, 0xbe, 0x3e, 0xff, 0xff, 0xff, 0x04, 0x00, 0x00, 0x00, 
  0x20, 0x00, 0x00, 0x00, 0x26, 0xe6, 0xf0, 0x3e, 0x6a, 0xfe, 0xe4, 0x3e, 
  0xa7, 0xf4, 0x06, 0x3f, 0xbc, 0xa1, 0xe8, 0x3e, 0xf0, 0xf9, 0x92, 0xbe, 
  0x9e, 0x81, 0xc0, 0x3e, 0xc2, 0xa4, 0xf5, 0x3e, 0x90, 0xd3, 0xb4, 0xbe, 
  0x5c, 0xfa, 0xff, 0xff, 0x60, 0xfa, 0xff, 0xff, 0x0f, 0x00, 0x00, 0x00, 
  0x4d, 0x4c, 0x49, 0x52, 0x20, 0x43, 0x6f, 0x6e, 0x76, 0x65, 0x72, 0x74, 
  0x65, 0x64, 0x2e, 0x00, 0x01, 0x00, 0x00, 0x00, 0x14, 0x00, 0x00, 0x00, 
  0x00, 0x00, 0x0e, 0x00, 0x18, 0x00, 0x14, 0x00, 0x10, 0x00, 0x0c, 0x00, 
  0x08, 0x00, 0x04, 0x00, 0x0e, 0x00, 0x00, 0x00, 0x14, 0x00, 0x00, 0x00, 
  0x1c, 0x00, 0x00, 0x00, 0x24, 0x01, 0x00, 0x00, 0x28, 0x01, 0x00, 0x00, 
  0x2c, 0x01, 0x00, 0x00, 0x04, 0x00, 0x00, 0x00, 0x6d, 0x61, 0x69, 0x6e, 
  0x00, 0x00, 0x00, 0x00, 0x04, 0x00, 0x00, 0x00, 0xcc, 0x00, 0x00, 0x00, 
  0x84, 0x00, 0x00, 0x00, 0x50, 0x00, 0x00, 0x00, 0x14, 0x00, 0x00, 0x00, 
  0x00, 0x00, 0x0e, 0x00, 0x1a, 0x00, 0x14, 0x00, 0x10, 0x00, 0x0c, 0x00, 
  0x0b, 0x00, 0x04, 0x00, 0x0e, 0x00, 0x00, 0x00, 0x1c, 0x00, 0x00, 0x00, 
  0x00, 0x00, 0x00, 0x09, 0x1c, 0x00, 0x00, 0x00, 0x20, 0x00, 0x00, 0x00, 
  0x01, 0x00, 0x00, 0x00, 0x00, 0x00, 0x06, 0x00, 0x08, 0x00, 0x04, 0x00, 
  0x06, 0x00, 0x00, 0x00, 0x00, 0x00, 0x80, 0x3f, 0x01, 0x00, 0x00, 0x00, 
  0x0a, 0x00, 0x00, 0x00, 0x01, 0x00, 0x00, 0x00, 0x09, 0x00, 0x00, 0x00, 
  0x9a, 0xff, 0xff, 0xff, 0x10, 0x00, 0x00, 0x00, 0x00, 0x00, 0x00, 0x08, 
  0x0c, 0x00, 0x00, 0x00, 0x10, 0x00, 0x00, 0x00, 0x24, 0xfb, 0xff, 0xff, 
  0x01, 0x00, 0x00, 0x00, 0x09, 0x00, 0x00, 0x00, 0x03, 0x00, 0x00, 0x00, 
  0x08, 0x00, 0x00, 0x00, 0x06, 0x00, 0x00, 0x00, 0x02, 0x00, 0x00, 0x00, 
  0xca, 0xff, 0xff, 0xff, 0x10, 0x00, 0x00, 0x00, 0x00, 0x00, 0x00, 0x08, 
  0x10, 0x00, 0x00, 0x00, 0x14, 0x00, 0x00, 0x00, 0xba, 0xff, 0xff, 0xff, 
  0x00, 0x00, 0x00, 0x01, 0x01, 0x00, 0x00, 0x00, 0x08, 0x00, 0x00, 0x00, 
  0x03, 0x00, 0x00, 0x00, 0x07, 0x00, 0x00, 0x00, 0x05, 0x00, 0x00, 0x00, 
  0x01, 0x00, 0x00, 0x00, 0x00, 0x00, 0x0e, 0x00, 0x16, 0x00, 0x00, 0x00, 
  0x10, 0x00, 0x0c, 0x00, 0x0b, 0x00, 0x04, 0x00, 0x0e, 0x00, 0x00, 0x00, 
  0x18, 0x00, 0x00, 0x00, 0x00, 0x00, 0x00, 0x08, 0x18, 0x00, 0x00, 0x00, 
  0x1c, 0x00, 0x00, 0x00, 0x00, 0x00, 0x06, 0x00, 0x08, 0x00, 0x07, 0x00, 
  0x06, 0x00, 0x00, 0x00, 0x00, 0x00, 0x00, 0x01, 0x01, 0x00, 0x00, 0x00, 
  0x07, 0x00, 0x00, 0x00, 0x03, 0x00, 0x00, 0x00, 0x00, 0x00, 0x00, 0x00, 
  0x04, 0x00, 0x00, 0x00, 0x03, 0x00, 0x00, 0x00, 0x01, 0x00, 0x00, 0x00, 
  0x0a, 0x00, 0x00, 0x00, 0x01, 0x00, 0x00, 0x00, 0x00, 0x00, 0x00, 0x00, 
  0x0b, 0x00, 0x00, 0x00, 0x04, 0x04, 0x00, 0x00, 0x94, 0x03, 0x00, 0x00, 
  0x24, 0x03, 0x00, 0x00, 0xd0, 0x02, 0x00, 0x00, 0x88, 0x02, 0x00, 0x00, 
  0x3c, 0x02, 0x00, 0x00, 0xf0, 0x01, 0x00, 0x00, 0x68, 0x01, 0x00, 0x00, 
  0xd8, 0x00, 0x00, 0x00, 0x60, 0x00, 0x00, 0x00, 0x04, 0x00, 0x00, 0x00, 
  0x3e, 0xfc, 0xff, 0xff, 0x00, 0x00, 0x00, 0x01, 0x14, 0x00, 0x00, 0x00, 
  0x1c, 0x00, 0x00, 0x00, 0x1c, 0x00, 0x00, 0x00, 0x0b, 0x00, 0x00, 0x00, 
  0x34, 0x00, 0x00, 0x00, 0x02, 0x00, 0x00, 0x00, 0xff, 0xff, 0xff, 0xff, 
  0x02, 0x00, 0x00, 0x00, 0x28, 0xfc, 0xff, 0xff, 0x19, 0x00, 0x00, 0x00, 
  0x53, 0x74, 0x61, 0x74, 0x65, 0x66, 0x75, 0x6c, 0x50, 0x61, 0x72, 0x74, 
  0x69, 0x74, 0x69, 0x6f, 0x6e, 0x65, 0x64, 0x43, 0x61, 0x6c, 0x6c, 0x3a, 
  0x30, 0x00, 0x00, 0x00, 0x02, 0x00, 0x00, 0x00, 0x01, 0x00, 0x00, 0x00, 
  0x02, 0x00, 0x00, 0x00, 0x96, 0xfc, 0xff, 0xff, 0x00, 0x00, 0x00, 0x01, 
  0x14, 0x00, 0x00, 0x00, 0x1c, 0x00, 0x00, 0x00, 0x1c, 0x00, 0x00, 0x00, 
  0x0a, 0x00, 0x00, 0x00, 0x50, 0x00, 0x00, 0x00, 0x02, 0x00, 0x00, 0x00, 
  0xff, 0xff, 0xff, 0xff, 0x02, 0x00, 0x00, 0x00, 0x80, 0xfc, 0xff, 0xff, 
  0x34, 0x00, 0x00, 0x00, 0x73, 0x65, 0x71, 0x75, 0x65, 0x6e, 0x74, 0x69, 
  0x61, 0x6c, 0x2f, 0x64, 0x65, 0x6e, 0x73, 0x65, 0x5f, 0x32, 0x2f, 0x4d, 
  0x61, 0x74, 0x4d, 0x75, 0x6c, 0x3b, 0x73, 0x65, 0x71, 0x75, 0x65, 0x6e, 
  0x74, 0x69, 0x61, 0x6c, 0x2f, 0x64, 0x65, 0x6e, 0x73, 0x65, 0x5f, 0x32, 
  0x2f, 0x42, 0x69, 0x61, 0x73, 0x41, 0x64, 0x64, 0x00, 0x00, 0x00, 0x00, 
  0x02, 0x00, 0x00, 0x00, 0x01, 0x00, 0x00, 0x00, 0x02, 0x00, 0x00, 0x00, 
  0x0a, 0xfd, 0xff, 0xff, 0x00, 0x00, 0x00, 0x01, 0x14, 0x00, 0x00, 0x00, 
  0x1c, 0x00, 0x00, 0x00, 0x1c, 0x00, 0x00, 0x00, 0x09, 0x00, 0x00, 0x00, 
  0x68, 0x00, 0x00, 0x00, 0x02, 0x00, 0x00, 0x00, 0xff, 0xff, 0xff, 0xff, 
  0x08, 0x00, 0x00, 0x00, 0xf4, 0xfc, 0xff, 0xff, 0x4c, 0x00, 0x00, 0x00, 
  0x73, 0x65, 0x71, 0x75, 0x65, 0x6e, 0x74, 0x69, 0x61, 0x6c, 0x2f, 0x64, 
  0x65, 0x6e, 0x73, 0x65, 0x5f, 0x31, 0x2f, 0x4d, 0x61, 0x74, 0x4d, 0x75, 
  0x6c, 0x3b, 0x73, 0x65, 0x71, 0x75, 0x65, 0x6e, 0x74, 0x69, 0x61, 0x6c, 
  0x2f, 0x64, 0x65, 0x6e, 0x73, 0x65, 0x5f, 0x31, 0x2f, 0x52, 0x65, 0x6c, 
  0x75, 0x3b, 0x73, 0x65, 0x71, 0x75, 0x65, 0x6e, 0x74, 0x69, 0x61, 0x6c, 
  0x2f, 0x64, 0x65, 0x6e, 0x73, 0x65, 0x5f, 0x31, 0x2f, 0x42, 0x69, 0x61, 
  0x73, 0x41, 0x64, 0x64, 0x00, 0x00, 0x00, 0x00, 0x02, 0x00, 0x00, 0x00, 
  0x01, 0x00, 0x00, 0x00, 0x08, 0x00, 0x00, 0x00, 0x96, 0xfd, 0xff, 0xff, 
  0x00, 0x00, 0x00, 0x01, 0x14, 0x00, 0x00, 0x00, 0x1c, 0x00, 0x00, 0x00, 
  0x1c, 0x00, 0x00, 0x00, 0x08, 0x00, 0x00, 0x00, 0x60, 0x00, 0x00, 0x00, 
  0x02, 0x00, 0x00, 0x00, 0xff, 0xff, 0xff, 0xff, 0x10, 0x00, 0x00, 0x00, 
  0x80, 0xfd, 0xff, 0xff, 0x46, 0x00, 0x00, 0x00, 0x73, 0x65, 0x71, 0x75, 
  0x65, 0x6e, 0x74, 0x69, 0x61, 0x6c, 0x2f, 0x64, 0x65, 0x6e, 0x73, 0x65, 
  0x2f, 0x4d, 0x61, 0x74, 0x4d, 0x75, 0x6c, 0x3b, 0x73, 0x65, 0x71, 0x75, 
  0x65, 0x6e, 0x74, 0x69, 0x61, 0x6c, 0x2f, 0x64, 0x65, 0x6e, 0x73, 0x65, 
  0x2f, 0x52, 0x65, 0x6c, 0x75, 0x3b, 0x73, 0x65, 0x71, 0x75, 0x65, 0x6e, 
  0x74, 0x69, 0x61, 0x6c, 0x2f, 0x64, 0x65, 0x6e, 0x73, 0x65, 0x2f, 0x42, 
  0x69, 0x61, 0x73, 0x41, 0x64, 0x64, 0x00, 0x00, 0x02, 0x00, 0x00, 0x00, 
  0x01, 0x00, 0x00, 0x00, 0x10, 0x00, 0x00, 0x00, 0x86, 0xfe, 0xff, 0xff, 
  0x00, 0x00, 0x00, 0x01, 0x10, 0x00, 0x00, 0x00, 0x10, 0x00, 0x00, 0x00, 
  0x07, 0x00, 0x00, 0x00, 0x28, 0x00, 0x00, 0x00, 0xf4, 0xfd, 0xff, 0xff, 
  0x19, 0x00, 0x00, 0x00, 0x73, 0x65, 0x71, 0x75, 0x65, 0x6e, 0x74, 0x69, 
  0x61, 0x6c, 0x2f, 0x64, 0x65, 0x6e, 0x73, 0x65, 0x5f, 0x32, 0x2f, 0x4d, 
  0x61, 0x74, 0x4d, 0x75, 0x6c, 0x00, 0x00, 0x00, 0x02, 0x00, 0x00, 0x00, 
  0x02, 0x00, 0x00, 0x00, 0x08, 0x00, 0x00, 0x00, 0xce, 0xfe, 0xff, 0xff, 
  0x00, 0x00, 0x00, 0x01, 0x10, 0x00, 0x00, 0x00, 0x10, 0x00, 0x00, 0x00, 
  0x06, 0x00, 0x00, 0x00, 0x28, 0x00, 0x00, 0x00, 0x3c, 0xfe, 0xff, 0xff, 
  0x19, 0x00, 0x00, 0x00, 0x73, 0x65, 0x71, 0x75, 0x65, 0x6e, 0x74, 0x69, 
  0x61, 0x6c, 0x2f, 0x64, 0x65, 0x6e, 0x73, 0x65, 0x5f, 0x31, 0x2f, 0x4d, 
  0x61, 0x74, 0x4d, 0x75, 0x6c, 0x00, 0x00, 0x00, 0x02, 0x00, 0x00, 0x00, 
  0x08, 0x00, 0x00, 0x00, 0x10, 0x00, 0x00, 0x00, 0x16, 0xff, 0xff, 0xff, 
  0x00, 0x00, 0x00, 0x01, 0x10, 0x00, 0x00, 0x00, 0x10, 0x00, 0x00, 0x00, 
  0x05, 0x00, 0x00, 0x00, 0x24, 0x00, 0x00, 0x00, 0x84, 0xfe, 0xff, 0xff, 
  0x17, 0x00, 0x00, 0x00, 0x73, 0x65, 0x71, 0x75, 0x65, 0x6e, 0x74, 0x69, 
  0x61, 0x6c, 0x2f, 0x64, 0x65, 0x6e, 0x73, 0x65, 0x2f, 0x4d, 0x61, 0x74, 
  0x4d, 0x75, 0x6c, 0x00, 0x02, 0x00, 0x00, 0x00, 0x10, 0x00, 0x00, 0x00, 
  0x04, 0x00, 0x00, 0x00, 0x5a, 0xff, 0xff, 0xff, 0x00, 0x00, 0x00, 0x01, 
  0x10, 0x00, 0x00, 0x00, 0x10, 0x00, 0x00, 0x00, 0x04, 0x00, 0x00, 0x00, 
  0x34, 0x00, 0x00, 0x00, 0xc8, 0xfe, 0xff, 0xff, 0x27, 0x00, 0x00, 0x00, 
  0x73, 0x65, 0x71, 0x75, 0x65, 0x6e, 0x74, 0x69, 0x61, 0x6c, 0x2f, 0x64, 
  0x65, 0x6e, 0x73, 0x65, 0x2f, 0x42, 0x69, 0x61, 0x73, 0x41, 0x64, 0x64, 
  0x2f, 0x52, 0x65, 0x61, 0x64, 0x56, 0x61, 0x72, 0x69, 0x61, 0x62, 0x6c, 
  0x65, 0x4f, 0x70, 0x00, 0x01, 0x00, 0x00, 0x00, 0x10, 0x00, 0x00, 0x00, 
  0xaa, 0xff, 0xff, 0xff, 0x00, 0x00, 0x00, 0x01, 0x10, 0x00, 0x00, 0x00, 
  0x10, 0x00, 0x00, 0x00, 0x03, 0x00, 0x00, 0x00, 0x38, 0x00, 0x00, 0x00, 
  0x18, 0xff, 0xff, 0xff, 0x29, 0x00, 0x00, 0x00, 0x73, 0x65, 0x71, 0x75, 
  0x65, 0x6e, 0x74, 0x69, 0x61, 0x6c, 0x2f, 0x64, 0x65, 0x6e, 0x73, 0x65, 
  0x5f, 0x32, 0x2f, 0x42, 0x69, 0x61, 0x73, 0x41, 0x64, 0x64, 0x2f, 0x52, 
  0x65, 0x61, 0x64, 0x56, 0x61, 0x72, 0x69, 0x61, 0x62, 0x6c, 0x65, 0x4f, 
  0x70, 0x00, 0x00, 0x00, 0x01, 0x00, 0x00, 0x00, 0x02, 0x00, 0x00, 0x00, 
  0x00, 0x00, 0x16, 0x00, 0x18, 0x00, 0x14, 0x00, 0x00, 0x00, 0x10, 0x00, 
  0x0c, 0x00, 0x08, 0x00, 0x00, 0x00, 0x00, 0x00, 0x00, 0x00, 0x07, 0x00, 
  0x16, 0x00, 0x00, 0x00, 0x00, 0x00, 0x00, 0x01, 0x10, 0x00, 0x00, 0x00, 
  0x10, 0x00, 0x00, 0x00, 0x02, 0x00, 0x00, 0x00, 0x38, 0x00, 0x00, 0x00, 
  0x84, 0xff, 0xff, 0xff, 0x29, 0x00, 0x00, 0x00, 0x73, 0x65, 0x71, 0x75, 
  0x65, 0x6e, 0x74, 0x69, 0x61, 0x6c, 0x2f, 0x64, 0x65, 0x6e, 0x73, 0x65, 
  0x5f, 0x31, 0x2f, 0x42, 0x69, 0x61, 0x73, 0x41, 0x64, 0x64, 0x2f, 0x52, 
  0x65, 0x61, 0x64, 0x56, 0x61, 0x72, 0x69, 0x61, 0x62, 0x6c, 0x65, 0x4f, 
  0x70, 0x00, 0x00, 0x00, 0x01, 0x00, 0x00, 0x00, 0x08, 0x00, 0x00, 0x00, 
  0x00, 0x00, 0x16, 0x00, 0x1c, 0x00, 0x18, 0x00, 0x00, 0x00, 0x14, 0x00, 
  0x10, 0x00, 0x0c, 0x00, 0x00, 0x00, 0x00, 0x00, 0x08, 0x00, 0x07, 0x00, 
  0x16, 0x00, 0x00, 0x00, 0x00, 0x00, 0x00, 0x01, 0x14, 0x00, 0x00, 0x00, 
  0x20, 0x00, 0x00, 0x00, 0x20, 0x00, 0x00, 0x00, 0x01, 0x00, 0x00, 0x00, 
  0x38, 0x00, 0x00, 0x00, 0x02, 0x00, 0x00, 0x00, 0xff, 0xff, 0xff, 0xff, 
  0x04, 0x00, 0x00, 0x00, 0x04, 0x00, 0x04, 0x00, 0x04, 0x00, 0x00, 0x00, 
  0x19, 0x00, 0x00, 0x00, 0x73, 0x65, 0x72, 0x76, 0x69, 0x6e, 0x67, 0x5f, 
  0x64, 0x65, 0x66, 0x61, 0x75, 0x6c, 0x74, 0x5f, 0x69, 0x6e, 0x70, 0x75, 
  0x74, 0x5f, 0x31, 0x3a, 0x30, 0x00, 0x00, 0x00, 0x02, 0x00, 0x00, 0x00, 
  0x01, 0x00, 0x00, 0x00, 0x04, 0x00, 0x00, 0x00, 0x02, 0x00, 0x00, 0x00, 
  0x20, 0x00, 0x00, 0x00, 0x04, 0x00, 0x00, 0x00, 0xf4, 0xff, 0xff, 0xff, 
  0x19, 0x00, 0x00, 0x00, 0x00, 0x00, 0x00, 0x19, 0x0c, 0x00, 0x0c, 0x00, 
  0x0b, 0x00, 0x00, 0x00, 0x00, 0x00, 0x04, 0x00, 0x0c, 0x00, 0x00, 0x00, 
  0x09, 0x00, 0x00, 0x00, 0x00, 0x00, 0x00, 0x09, 
};
const int health_model_len = 3020;
